{"special_tokens": ["<|endoftext|>"], "token2id": {"<|endoftext|>": 0, "\n": 1, " ": 2, "!": 3, "\"": 4, "#": 5, "$": 6, "%": 7, "&": 8, "'": 9, "(": 10, ")": 11, "*": 12, "+": 13, ",": 14, "-": 15, ".": 16, "/": 17, "0": 18, "1": 19, "2": 20, "3": 21, "4": 22, "5": 23, "6": 24, "7": 25, "8": 26, "9": 27, ":": 28, ";": 29, "<": 30, "=": 31, ">": 32, "?": 33, "@": 34, "A": 35, "B": 36, "C": 37, "D": 38, "E": 39, "F": 40, "G": 41, "H": 42, "I": 43, "J": 44, "K": 45, "L": 46, "M": 47, "N": 48, "O": 49, "P": 50, "Q": 51, "R": 52, "S": 53, "T": 54, "U": 55, "V": 56, "W": 57, "X": 58, "Y": 59, "Z": 60, "[": 61, "\\": 62, "]": 63, "^": 64, "_": 65, "`": 66, "a": 67, "b": 68, "c": 69, "d": 70, "e": 71, "f": 72, "g": 73, "h": 74, "i": 75, "j": 76, "k": 77, "l": 78, "m": 79, "n": 80, "o": 81, "p": 82, "q": 83, "r": 84, "s": 85, "t": 86, "u": 87, "v": 88, "w": 89, "x": 90, "y": 91, "z": 92, "{": 93, "|": 94, "}": 95, "~": 96, "\u00a1": 97, "\u00a3": 98, "\u00a5": 99, "\u00a7": 100, "\u00ac": 101, "\u00ae": 102, "\u00b0": 103, "\u00b2": 104, "\u00b3": 105, "\u00b5": 106, "\u00b7": 107, "\u00bd": 108, "\u00c1": 109, "\u00c3": 110, "\u00c5": 111, "\u00c9": 112, "\u00cb": 113, "\u00d0": 114, "\u00d6": 115, "\u00d7": 116, "\u00d8": 117, "\u00df": 118, "\u00e0": 119, "\u00e1": 120, "\u00e2": 121, "\u00e3": 122, "\u00e4": 123, "\u00e5": 124, "\u00e7": 125, "\u00e8": 126, "\u00e9": 127, "\u00ea": 128, "\u00eb": 129, "\u00ed": 130, "\u00ef": 131, "\u00f1": 132, "\u00f3": 133, "\u00f4": 134, "\u00f6": 135, "\u00f7": 136, "\u00f8": 137, "\u00fa": 138, "\u00fb": 139, "\u00fc": 140, "\u0101": 141, "\u0107": 142, "\u010d": 143, "\u0111": 144, "\u0119": 145, "\u011f": 146, "\u012b": 147, "\u0130": 148, "\u0131": 149, "\u0142": 150, "\u0144": 151, "\u0145": 152, "\u014c": 153, "\u014d": 154, "\u0156": 155, "\u0159": 156, "\u015f": 157, "\u016b": 158, "\u0175": 159, "\u0190": 160, "\u01de": 161, "\u02be": 162, "\u02bf": 163, "\u0394": 164, "\u039b": 165, "\u03a9": 166, "\u03b1": 167, "\u03b2": 168, "\u03b3": 169, "\u03b4": 170, "\u03b5": 171, "\u03b8": 172, "\u03ba": 173, "\u03bb": 174, "\u03bc": 175, "\u03bd": 176, "\u03be": 177, "\u03c0": 178, "\u03c1": 179, "\u03c3": 180, "\u03c4": 181, "\u03c8": 182, "\u03c9": 183, "\u0420": 184, "\u0437": 185, "\u0438": 186, "\u0439": 187, "\u043a": 188, "\u0441": 189, "\u0443": 190, "\u044b": 191, "\u044f": 192, "\u04e8": 193, "\u1e24": 194, "\u1e25": 195, "\u1e63": 196, "\u2006": 197, "\u2010": 198, "\u2013": 199, "\u2014": 200, "\u2018": 201, "\u2019": 202, "\u201d": 203, "\u2032": 204, "\u2033": 205, "\u20ac": 206, "\u2103": 207, "\u2122": 208, "\u2126": 209, "\u2192": 210, "\u2194": 211, "\u21d4": 212, "\u2206": 213, "\u2212": 214, "\u221e": 215, "\u2228": 216, "\u222b": 217, "\u2248": 218, "\u2260": 219, "\u2261": 220, "\u2264": 221, "\u2265": 222, "\u226a": 223, "\u2705": 224, "\u2713": 225, "\u2717": 226, "\u274c": 227, "\u4e00": 228, "\u4e1a": 229, "\u4e2d": 230, "\u4efd": 231, "\u521b": 232, "\u5238": 233, "\u56fd": 234, "\u592a": 235, "\u5e73": 236, "\u65b9": 237, "\u6b63": 238, "\u6c49": 239, "\u6cb3": 240, "\u6d0b": 241, "\u7b2c": 242, "\u80a1": 243, "\u8bc1": 244, "\u8bed": 245, "\u94f6": 246, "\u9526": 247, "\u9f99": 248, "e ": 249, "s ": 250, "th": 251, "t ": 252, "in": 253, "on": 254, ", ": 255, "an": 256, "er": 257, "d ": 258, "en": 259, "the ": 260, "ti": 261, "or": 262, "re": 263, "al": 264, "ar": 265, "y ": 266, " the ": 267, "tion": 268, "ing": 269, "at": 270, "st": 271, "is ": 272, "o ": 273, "ic": 274, "es ": 275, "ro": 276, "us": 277, "es": 278, "and ": 279, "ed ": 280, "wi": 281, "of": 282, "ing ": 283, "Th": 284, "ec": 285, "a ": 286, "ac": 287, "with": 288, ". ": 289, ") ": 290, "er ": 291, ".\n": 292, "no": 293, "al ": 294, "it": 295, "for": 296, "as": 297, "with ": 298, "to ": 299, "tion ": 300, "co": 301, "\n(": 302, "le": 303, "h ": 304, "si": 305, "of ": 306, "di": 307, "ur": 308, "ol": 309, "not ": 310, "el": 311, "ent": 312, "con": 313, "The ": 314, "mus": 315, "must ": 316, "ent ": 317, "ul": 318, "be ": 319, "in ": 320, "on ": 321, "at ": 322, "vi": 323, "am": 324, "op": 325, "s, ": 326, "em": 327, "et": 328, "- ": 329, "lu": 330, "lo": 331, "an ": 332, ": ": 333, "il": 334, "ch": 335, "ra": 336, "ri": 337, "un": 338, "ir": 339, "res": 340, "mp": 341, "ex": 342, "ed": 343, "up": 344, "li": 345, "as ": 346, "ad": 347, "pro": 348, "ve ": 349, "e, ": 350, "wh": 351, ". The ": 352, "'s ": 353, "m ": 354, "rec": 355, "that ": 356, "clu": 357, "ce ": 358, "qu": 359, "ation": 360, "ation ": 361, "This ": 362, "all": 363, "is": 364, "ig": 365, "are ": 366, "ag": 367, "int": 368, "en ": 369, "ab": 370, "for ": 371, "pl": 372, "be": 373, "or ": 374, "of the ": 375, "cor": 376, "to": 377, "se": 378, "per": 379, ":\n": 380, "ate ": 381, "ich ": 382, "y, ": 383, "sp": 384, ".\n\n": 385, "the": 386, "ev": 387, "le ": 388, "can": 389, "ati": 390, "ly ": 391, "me": 392, "must be ": 393, "comp": 394, "ou": 395, "ran": 396, ", and ": 397, "os": 398, "uc": 399, "ap": 400, "cannot ": 401, " with ": 402, "ach ": 403, ".\n\n(": 404, "correc": 405, "use ": 406, "ect": 407, "ity ": 408, "do": 409, "ff": 410, "low": 411, "which ": 412, "sh": 413, "k ": 414, "ver": 415, "up ": 416, "in the ": 417, "pres": 418, "A ": 419, "ment": 420, "te": 421, "tic": 422, "ay": 423, "one ": 424, "bu": 425, "ow": 426, "fore ": 427, "before ": 428, "oc": 429, "if": 430, "om": 431, "ers ": 432, "A) ": 433, "on the ": 434, "ha": 435, "im": 436, "ir ": 437, "es, ": 438, "end": 439, "ic ": 440, "com": 441, "ne": 442, "fro": 443, "id": 444, "gro": 445, "vid": 446, "th ": 447, "su": 448, "l ": 449, "it ": 450, "E) ": 451, "C) ": 452, "bec": 453, "option ": 454, "D) ": 455, "ause ": 456, "; ": 457, "B) ": 458, "ter": 459, "because ": 460, "gi": 461, "str": 462, "ates ": 463, "stra": 464, "ai": 465, "\n(A) ": 466, "ak": 467, "their ": 468, "od": 469, "each ": 470, "\n- ": 471, ".\n- ": 472, "par": 473, "ence ": 474, "correct ": 475, " is ": 476, ", C": 477, "to the ": 478, "enc": 479, "af": 480, "rul": 481, "um": 482, "has ": 483, "st ": 484, "bo": 485, " and ": 486, "ear": 487, "ing the ": 488, "sc": 489, "does ": 490, "\nThis ": 491, "ure ": 492, "der": 493, "can ": 494, "constra": 495, "ment ": 496, "ay ": 497, "ts ": 498, "does not ": 499, "w ": 500, "form": 501, "her": 502, "from ": 503, "viol": 504, "iz": 505, "de": 506, "In": 507, "have ": 508, "wor": 509, "tions ": 510, "with the ": 511, "cannot be ": 512, "ased ": 513, "spec": 514, "min": 515, "present": 516, "ical ": 517, "2 ": 518, "fol": 519, "ip": 520, "ot": 521, "so ": 522, "by ": 523, ", B": 524, "ud": 525, "tr": 526, "lex": 527, "fir": 528, "follow": 529, "ther ": 530, "enti": 531, "ther": 532, "clud": 533, "ed to ": 534, "igh": 535, "1 ": 536, "ast ": 537, "e the ": 538, ", D": 539, "fi": 540, "ame ": 541, "and": 542, "is not ": 543, "uld ": 544, "eg": 545, "ble ": 546, "aly": 547, "ter ": 548, "anc": 549, "but ": 550, "than ": 551, "der ": 552, "red ": 553, "n ": 554, "rang": 555, "sec": 556, "constraint": 557, "Ch": 558, "ess": 559, ", which ": 560, "s and ": 561, "act": 562, "por": 563, "est": 564, "any ": 565, "sequ": 566, "Clu": 567, "diff": 568, "att": 569, "mor": 570, "we ": 571, "ist": 572, "es:\n": 573, "ph": 574, "ement ": 575, "imp": 576, "duc": 577, "est ": 578, "ated ": 579, "cl": 580, "dition": 581, "ma": 582, "am ": 583, "differ": 584, "provid": 585, "ar ": 586, "el ": 587, "Alex": 588, "\n\n": 589, "all the ": 590, "3 ": 591, "includ": 592, "ari": 593, "pre": 594, "adher": 595, "tw": 596, ", E": 597, "Al": 598, "clue ": 599, "' ": 600, "consi": 601, "violates ": 602, "cont": 603, "comm": 604, "we": 605, "ess ": 606, "sion": 607, "analy": 608, "\n(C) ": 609, "set": 610, "0 ": 611, "ut": 612, "gn": 613, "\n(B) ": 614, "\n(D) ": 615, "\n(E) ": 616, "alu": 617, "ure": 618, "er, ": 619, "different ": 620, "out ": 621, "same ": 622, "ens": 623, "la": 624, "iti": 625, "and the ": 626, "arrang": 627, "all ": 628, "\n- This ": 629, "St": 630, "more ": 631, "they ": 632, "wil": 633, "po": 634, "et ": 635, "inv": 636, "our": 637, "ance ": 638, "ep": 639, "sion ": 640, "ice ": 641, "gh": 642, "tim": 643, "ext ": 644, "Clues:\n": 645, "also ": 646, "pos": 647, "og": 648, "ser": 649, "Q: ": 650, "cur": 651, "), ": 652, "correct": 653, "based ": 654, ".\n\nClues:\n": 655, "ang": 656, "s the ": 657, "day": 658, "ents ": 659, "age ": 660, "will ": 661, "ial ": 662, "sy": 663, "no ": 664, "exper": 665, "ey ": 666, "?\n(A) ": 667, "giv": 668, "ain": 669, "iv": 670, "for the ": 671, "inter": 672, "ations ": 673, "clues ": 674, "ech": 675, "cho": 676, "ass": 677, "tiv": 678, "following ": 679, "sign": 680, "eng": 681, "requ": 682, "next ": 683, "end ": 684, "det": 685, "work": 686, "s. ": 687, "group": 688, "only ": 689, "ely ": 690, "ect ": 691, "group ": 692, "ary ": 693, "conf": 694, "two ": 695, "are": 696, "av": 697, "first ": 698, "fri": 699, "r. ": 700, ":\n\n(A) ": 701, "its ": 702, "If": 703, "ant ": 704, "ing a ": 705, "s. The ": 706, "\n\nQ: ": 707, "stud": 708, "ies ": 709, "5 ": 710, "medi": 711, "fin": 712, "after ": 713, "aile": 714, "let": 715, "ob": 716, ", S": 717, "ous ": 718, "order ": 719, "sub": 720, "ron": 721, "sequence ": 722, "able ": 723, "tra": 724, "sible ": 725, "ese ": 726, "cre": 727, "resp": 728, "yp": 729, "evalu": 730, "tive ": 731, "oun": 732, "of the following ": 733, "ase ": 734, "adheres ": 735, "ould ": 736, "Ther": 737, "specif": 738, "4 ": 739, "ed, ": 740, "pa": 741, "Wh": 742, "Each ": 743, "ree ": 744, "coun": 745, "Let": 746, "a, ": 747, "atis": 748}, "merges": [["e", " "], ["s", " "], ["t", "h"], ["t", " "], ["i", "n"], ["o", "n"], [",", " "], ["a", "n"], ["e", "r"], ["d", " "], ["e", "n"], ["th", "e "], ["t", "i"], ["o", "r"], ["r", "e"], ["a", "l"], ["a", "r"], ["y", " "], [" ", "the "], ["ti", "on"], ["in", "g"], ["a", "t"], ["s", "t"], ["i", "s "], ["o", " "], ["i", "c"], ["e", "s "], ["r", "o"], ["u", "s"], ["e", "s"], ["an", "d "], ["e", "d "], ["w", "i"], ["o", "f"], ["ing", " "], ["T", "h"], ["e", "c"], ["a", " "], ["a", "c"], ["wi", "th"], [".", " "], [")", " "], ["er", " "], [".", "\n"], ["n", "o"], ["al", " "], ["i", "t"], ["f", "or"], ["a", "s"], ["with", " "], ["t", "o "], ["tion", " "], ["c", "o"], ["\n", "("], ["l", "e"], ["h", " "], ["s", "i"], ["of", " "], ["d", "i"], ["u", "r"], ["o", "l"], ["no", "t "], ["e", "l"], ["en", "t"], ["c", "on"], ["Th", "e "], ["m", "us"], ["mus", "t "], ["en", "t "], ["u", "l"], ["b", "e "], ["in", " "], ["on", " "], ["a", "t "], ["v", "i"], ["a", "m"], ["o", "p"], ["s", ", "], ["e", "m"], ["e", "t"], ["-", " "], ["l", "u"], ["l", "o"], ["an", " "], [":", " "], ["i", "l"], ["c", "h"], ["r", "a"], ["r", "i"], ["u", "n"], ["i", "r"], ["re", "s"], ["m", "p"], ["e", "x"], ["e", "d"], ["u", "p"], ["l", "i"], ["a", "s "], ["a", "d"], ["p", "ro"], ["v", "e "], ["e", ", "], ["w", "h"], [". ", "The "], ["'", "s "], ["m", " "], ["re", "c"], ["th", "at "], ["c", "lu"], ["c", "e "], ["q", "u"], ["a", "tion"], ["a", "tion "], ["Th", "is "], ["al", "l"], ["i", "s"], ["i", "g"], ["ar", "e "], ["a", "g"], ["in", "t"], ["en", " "], ["a", "b"], ["for", " "], ["p", "l"], ["b", "e"], ["or", " "], ["of", " the "], ["c", "or"], ["t", "o"], ["s", "e"], ["p", "er"], [":", "\n"], ["at", "e "], ["ic", "h "], ["y", ", "], ["s", "p"], [".\n", "\n"], ["th", "e"], ["e", "v"], ["l", "e "], ["c", "an"], ["a", "ti"], ["l", "y "], ["m", "e"], ["must ", "be "], ["co", "mp"], ["o", "u"], ["r", "an"], [", ", "and "], ["o", "s"], ["u", "c"], ["a", "p"], ["can", "not "], [" ", "with "], ["ac", "h "], [".\n", "\n("], ["cor", "rec"], ["us", "e "], ["ec", "t"], ["it", "y "], ["d", "o"], ["f", "f"], ["lo", "w"], ["wh", "ich "], ["s", "h"], ["k", " "], ["v", "er"], ["up", " "], ["in", " the "], ["p", "res"], ["A", " "], ["m", "ent"], ["t", "e"], ["ti", "c"], ["a", "y"], ["on", "e "], ["b", "u"], ["o", "w"], ["for", "e "], ["be", "fore "], ["o", "c"], ["i", "f"], ["o", "m"], ["er", "s "], ["A", ") "], ["on", " the "], ["h", "a"], ["i", "m"], ["ir", " "], ["es", ", "], ["en", "d"], ["ic", " "], ["co", "m"], ["n", "e"], ["f", "ro"], ["i", "d"], ["g", "ro"], ["vi", "d"], ["th", " "], ["s", "u"], ["l", " "], ["i", "t "], ["E", ") "], ["C", ") "], ["b", "ec"], ["op", "tion "], ["D", ") "], ["a", "use "], [";", " "], ["B", ") "], ["t", "er"], ["bec", "ause "], ["g", "i"], ["st", "r"], ["at", "es "], ["st", "ra"], ["a", "i"], ["\n(", "A) "], ["a", "k"], ["the", "ir "], ["o", "d"], ["e", "ach "], ["\n", "- "], [".\n", "- "], ["p", "ar"], ["en", "ce "], ["correc", "t "], [" ", "is "], [", ", "C"], ["to", " the "], ["en", "c"], ["a", "f"], ["r", "ul"], ["u", "m"], ["h", "as "], ["s", "t "], ["b", "o"], [" ", "and "], ["e", "ar"], ["ing", " the "], ["s", "c"], ["do", "es "], ["\n", "This "], ["ur", "e "], ["d", "er"], ["c", "an "], ["con", "stra"], ["m", "ent "], ["a", "y "], ["t", "s "], ["does ", "not "], ["w", " "], ["for", "m"], ["h", "er"], ["fro", "m "], ["vi", "ol"], ["i", "z"], ["d", "e"], ["I", "n"], ["ha", "ve "], ["w", "or"], ["tion", "s "], ["with", " the "], ["cannot ", "be "], ["as", "ed "], ["sp", "ec"], ["m", "in"], ["pres", "ent"], ["ic", "al "], ["2", " "], ["f", "ol"], ["i", "p"], ["o", "t"], ["s", "o "], ["b", "y "], [", ", "B"], ["u", "d"], ["t", "r"], ["le", "x"], ["f", "ir"], ["fol", "low"], ["th", "er "], ["en", "ti"], ["th", "er"], ["clu", "d"], ["ed ", "to "], ["ig", "h"], ["1", " "], ["as", "t "], ["e ", "the "], [", ", "D"], ["f", "i"], ["am", "e "], ["an", "d"], ["is ", "not "], ["ul", "d "], ["e", "g"], ["b", "le "], ["al", "y"], ["t", "er "], ["an", "c"], ["bu", "t "], ["th", "an "], ["d", "er "], ["re", "d "], ["n", " "], ["ran", "g"], ["s", "ec"], ["constra", "int"], ["C", "h"], ["es", "s"], [", ", "which "], ["s ", "and "], ["ac", "t"], ["p", "or"], ["e", "st"], ["an", "y "], ["se", "qu"], ["C", "lu"], ["di", "ff"], ["at", "t"], ["m", "or"], ["w", "e "], ["i", "st"], ["es", ":\n"], ["p", "h"], ["em", "ent "], ["i", "mp"], ["d", "uc"], ["es", "t "], ["at", "ed "], ["c", "l"], ["di", "tion"], ["m", "a"], ["am", " "], ["diff", "er"], ["pro", "vid"], ["ar", " "], ["el", " "], ["A", "lex"], ["\n", "\n"], ["all", " the "], ["3", " "], ["in", "clud"], ["ar", "i"], ["p", "re"], ["ad", "her"], ["t", "w"], [", ", "E"], ["A", "l"], ["clu", "e "], ["'", " "], ["con", "si"], ["viol", "ates "], ["con", "t"], ["com", "m"], ["w", "e"], ["es", "s "], ["si", "on"], ["an", "aly"], ["\n(", "C) "], ["s", "et"], ["0", " "], ["u", "t"], ["g", "n"], ["\n(", "B) "], ["\n(", "D) "], ["\n(", "E) "], ["al", "u"], ["u", "re"], ["er", ", "], ["differ", "ent "], ["ou", "t "], ["s", "ame "], ["en", "s"], ["l", "a"], ["i", "ti"], ["and ", "the "], ["ar", "rang"], ["all", " "], ["\n- ", "This "], ["S", "t"], ["mor", "e "], ["the", "y "], ["wi", "l"], ["p", "o"], ["e", "t "], ["in", "v"], ["o", "ur"], ["an", "ce "], ["e", "p"], ["si", "on "], ["ic", "e "], ["g", "h"], ["ti", "m"], ["ex", "t "], ["Clu", "es:\n"], ["al", "so "], ["p", "os"], ["o", "g"], ["s", "er"], ["Q", ": "], ["c", "ur"], [")", ", "], ["correc", "t"], ["b", "ased "], [".\n\n", "Clues:\n"], ["an", "g"], ["s ", "the "], ["d", "ay"], ["ent", "s "], ["ag", "e "], ["wil", "l "], ["i", "al "], ["s", "y"], ["n", "o "], ["ex", "per"], ["e", "y "], ["?", "\n(A) "], ["gi", "v"], ["a", "in"], ["i", "v"], ["for", " the "], ["int", "er"], ["ation", "s "], ["clu", "es "], ["ec", "h"], ["ch", "o"], ["as", "s"], ["ti", "v"], ["follow", "ing "], ["si", "gn"], ["en", "g"], ["re", "qu"], ["n", "ext "], ["en", "d "], ["d", "et"], ["wor", "k"], ["s", ". "], ["gro", "up"], ["on", "ly "], ["el", "y "], ["ec", "t "], ["gro", "up "], ["ar", "y "], ["con", "f"], ["tw", "o "], ["a", "re"], ["a", "v"], ["fir", "st "], ["f", "ri"], ["r", ". "], [":\n", "\n(A) "], ["it", "s "], ["I", "f"], ["an", "t "], ["ing ", "a "], ["s", ". The "], ["\n\n", "Q: "], ["st", "ud"], ["i", "es "], ["5", " "], ["me", "di"], ["f", "in"], ["af", "ter "], ["ai", "le"], ["le", "t"], ["o", "b"], [", ", "S"], ["ou", "s "], ["or", "der "], ["su", "b"], ["r", "on"], ["sequ", "ence "], ["ab", "le "], ["t", "ra"], ["si", "ble "], ["es", "e "], ["c", "re"], ["res", "p"], ["y", "p"], ["ev", "alu"], ["ti", "ve "], ["o", "un"], ["of the ", "following "], ["as", "e "], ["adher", "es "], ["o", "uld "], ["Th", "er"], ["spec", "if"], ["4", " "], ["ed", ", "], ["p", "a"], ["W", "h"], ["E", "ach "], ["re", "e "], ["co", "un"], ["L", "et"], ["a", ", "], ["ati", "s"]]}